TRT-7000-EntropyCalibration2
input_1: 3c010108
activation_1/Relu6: 3d41810e
block_1a_relu_1/Relu6: 3d41810e
block_1a_bn_2/batchnorm/add_1: 3db6811a
block_1a_bn_shortcut/batchnorm/add_1: 3d42ca65
add_1/add: 3dc37c81
block_1a_relu/Relu6: 3d41810e
block_1b_relu_1/Relu6: 3d41810e
block_1b_bn_2/batchnorm/add_1: 3ebf0ac3
add_2/add: 3eb1a8e1
block_1b_relu/Relu6: 3d41810e
block_2a_relu_1/Relu6: 3d41810e
block_2a_bn_2/batchnorm/add_1: 3de68798
block_2a_bn_shortcut/batchnorm/add_1: 3d44bae4
add_3/add: 3de26767
block_2a_relu/Relu6: 3d41810e
block_2b_relu_1/Relu6: 3d41810e
block_2b_bn_2/batchnorm/add_1: 3e0fd53d
add_4/add: 3e0f6c6c
block_2b_relu/Relu6: 3d41810e
block_3a_relu_1/Relu6: 3d41810e
block_3a_bn_2/batchnorm/add_1: 3daf8c14
block_3a_bn_shortcut/batchnorm/add_1: 3ce90f10
add_5/add: 3dd7d747
block_3a_relu/Relu6: 3d41810e
block_3b_relu_1/Relu6: 3d41810e
block_3b_bn_2/batchnorm/add_1: 3e6e5385
add_6/add: 3e67388b
block_3b_relu/Relu6: 3d41810e
block_4a_relu_1/Relu6: 3d41810e
block_4a_bn_2/batchnorm/add_1: 3e173e90
block_4a_bn_shortcut/batchnorm/add_1: 3e43718e
add_7/add: 3e47d1d3
block_4a_relu/Relu6: 3d41810e
block_4b_relu_1/Relu6: 3d41810e
block_4b_bn_2/batchnorm/add_1: 3f029dbd
add_8/add: 3f01d441
block_4b_relu/Relu6: 3d41810e
